0x22ba
0xc2a8
0x111b
0x1fd8
0xffd0
0xdcc7
0xd95b
0x2159
0xd5a6
0xcb4f
0x17b9
0x3a08
0xc082
0x018f
0x2803
0x0e67
0x1c62
0xe55d
0x3579
0x1b77
0x0572
0xd233
0xefca
0x164a
0xf88e
0xf78e
0x0f12
0x01ae
0x1340
0x0cee
0x2711
0x02c5
0x344e
0xe8dd
0xcb95
0xe67e
0xce98
0x2a12
0xc601
0x102a
0x0617
0x28de
0xd978
0x2dad
0xed03
0x2098
0xe5e3
0x3124
0xe9ab
0xd520
0xf23f
0xcbf7
0x2919
0xd359
0xf12b
0x38dd
0x3e6a
0xfa69
0x29be
0xe02e
0x0c76
0x338f
0x046c
0x0b8b
