0xc9de
0xda5d
0x0971
0xe59d
0x13ee
0x26db
0xecf5
0xcbf6
0x281a
0x2476
0xf25c
0x2ea7
0xf128
0xe0f0
0x2a29
0x1e41
0x00f9
0x1279
0xdb4a
0x32a6
0x3ba4
0xe894
0x2eca
0xe7b8
0xc33c
0xc64d
0xd7a2
0xc8d7
0xe0f5
0x34f0
0xfa9b
0xd0ab
0x27aa
0xf3a5
0xc321
0x2dac
0xe31d
0x1ac3
0xed8a
0x25ab
0x2c1c
0x04e2
0x0790
0xcfaf
0xf057
0xf6e2
0x016f
0x3225
0xe66e
0xf2bf
0x2589
0xf4c6
0xd7aa
0x2b8d
0x08dd
0xc7b0
0x3e94
0xdd49
0x0eae
0xef1c
0x26c1
0x1053
0x291d
0xe4e6
