0xc508
0xedb9
0xca31
0xe71a
0xea56
0x230c
0xc51e
0xf6fa
0xe850
0x1178
0xec56
0xc585
0x30a1
0x21b1
0x3065
0xf571
0x0d83
0x01b9
0x0c85
0xe191
0xe683
0xc341
0xe6cb
0xdefd
0x075e
0x0862
0xfcd2
0xe57b
0xc83a
0x3d49
0xeb7c
0xff5e
0x3d10
0xf86c
0xe8be
0x0288
0x0a00
0x2d4d
0xc8b8
0xfb76
0x2416
0x1bfb
0x0b02
0xc4c0
0xece3
0x0816
0xe65e
0x0194
0x1634
0xd461
0xc677
0xeb3e
0xcdd6
0xd6e7
0x3162
0xeec5
0xdc01
0x2051
0xcdaf
0x1f4f
0xfc22
0x0c93
0xd2e6
0xd78f
