0x1291
0xc63a
0xdfd3
0x056d
0xdd07
0xf0d3
0x360b
0x3672
0x088b
0x0448
0xc1e7
0x3d2b
0x0959
0x2558
0x07e1
0x304c
0x0ac6
0x1abb
0xd304
0xf6d8
0x18d1
0xcd65
0xf845
0xd547
0x00e4
0x28d6
0xcb89
0x2668
0x0856
0x0b6f
0xd95c
0xf7d3
0xe5e1
0xc4cf
0xc3ee
0xfa00
0x1f57
0x0755
0xf14c
0xd584
0x2b4c
0x0cad
0x242f
0x2c9b
0x0d34
0x23f9
0x0ed0
0xc2b6
0x200f
0xd689
0xfab1
0x01ae
0xfdf5
0x2c14
0xd661
0xc1e0
0x2ca4
0x1f0f
0xfa76
0xf55d
0xcef1
0xeb5a
0xcc1e
0x1ba0
